
// This is a TensorFlow Lite model file that has been converted into a C data
// array using the tensorflow.lite.util.convert_bytes_to_c_source() function.
// This form is useful for compiling into a binary for devices that don't have a
// file system.


// We need to keep the data array aligned on some architectures.
#ifdef __has_attribute
#define HAVE_ATTRIBUTE(x) __has_attribute(x)
#else
#define HAVE_ATTRIBUTE(x) 0
#endif
#if HAVE_ATTRIBUTE(aligned) || (defined(__GNUC__) && !defined(__clang__))
#define DATA_ALIGN_ATTRIBUTE __attribute__((aligned(4)))
#else
#define DATA_ALIGN_ATTRIBUTE
#endif

const unsigned char kwt[] DATA_ALIGN_ATTRIBUTE = {
    0x1c, 0x00, 0x00, 0x00, 0x54, 0x46, 0x4c, 0x33, 0x14, 0x00, 0x20, 0x00, 0x1c,
    0x00, 0x18, 0x00, 0x14, 0x00, 0x10, 0x00, 0x0c, 0x00, 0x00, 0x00, 0x08, 0x00,
    0x04, 0x00, 0x14, 0x00, 0x00, 0x00, 0x1c, 0x00, 0x00, 0x00, 0x90, 0x00, 0x00,
    0x00, 0xe8, 0x00, 0x00, 0x00, 0x04, 0x07, 0x00, 0x00, 0x14, 0x07, 0x00, 0x00,
    0x0c, 0x0c, 0x00, 0x00, 0x03, 0x00, 0x00, 0x00, 0x01, 0x00, 0x00, 0x00, 0x10,
    0x00, 0x00, 0x00, 0x00, 0x00, 0x0a, 0x00, 0x10, 0x00, 0x0c, 0x00, 0x08, 0x00,
    0x04, 0x00, 0x0a, 0x00, 0x00, 0x00, 0x0c, 0x00, 0x00, 0x00, 0x1c, 0x00, 0x00,
    0x00, 0x38, 0x00, 0x00, 0x00, 0x0f, 0x00, 0x00, 0x00, 0x73, 0x65, 0x72, 0x76,
    0x69, 0x6e, 0x67, 0x5f, 0x64, 0x65, 0x66, 0x61, 0x75, 0x6c, 0x74, 0x00, 0x01,
    0x00, 0x00, 0x00, 0x04, 0x00, 0x00, 0x00, 0x98, 0xff, 0xff, 0xff, 0x09, 0x00,
    0x00, 0x00, 0x04, 0x00, 0x00, 0x00, 0x07, 0x00, 0x00, 0x00, 0x64, 0x65, 0x6e,
    0x73, 0x65, 0x5f, 0x32, 0x00, 0x01, 0x00, 0x00, 0x00, 0x04, 0x00, 0x00, 0x00,
    0xc6, 0xf9, 0xff, 0xff, 0x04, 0x00, 0x00, 0x00, 0x0b, 0x00, 0x00, 0x00, 0x64,
    0x65, 0x6e, 0x73, 0x65, 0x5f, 0x69, 0x6e, 0x70, 0x75, 0x74, 0x00, 0x02, 0x00,
    0x00, 0x00, 0x34, 0x00, 0x00, 0x00, 0x04, 0x00, 0x00, 0x00, 0xdc, 0xff, 0xff,
    0xff, 0x0c, 0x00, 0x00, 0x00, 0x04, 0x00, 0x00, 0x00, 0x13, 0x00, 0x00, 0x00,
    0x43, 0x4f, 0x4e, 0x56, 0x45, 0x52, 0x53, 0x49, 0x4f, 0x4e, 0x5f, 0x4d, 0x45,
    0x54, 0x41, 0x44, 0x41, 0x54, 0x41, 0x00, 0x08, 0x00, 0x0c, 0x00, 0x08, 0x00,
    0x04, 0x00, 0x08, 0x00, 0x00, 0x00, 0x0b, 0x00, 0x00, 0x00, 0x04, 0x00, 0x00,
    0x00, 0x13, 0x00, 0x00, 0x00, 0x6d, 0x69, 0x6e, 0x5f, 0x72, 0x75, 0x6e, 0x74,
    0x69, 0x6d, 0x65, 0x5f, 0x76, 0x65, 0x72, 0x73, 0x69, 0x6f, 0x6e, 0x00, 0x0d,
    0x00, 0x00, 0x00, 0x18, 0x06, 0x00, 0x00, 0x10, 0x06, 0x00, 0x00, 0xc0, 0x05,
    0x00, 0x00, 0xa4, 0x05, 0x00, 0x00, 0x54, 0x05, 0x00, 0x00, 0x04, 0x05, 0x00,
    0x00, 0xf4, 0x00, 0x00, 0x00, 0xa4, 0x00, 0x00, 0x00, 0x9c, 0x00, 0x00, 0x00,
    0x94, 0x00, 0x00, 0x00, 0x8c, 0x00, 0x00, 0x00, 0x6c, 0x00, 0x00, 0x00, 0x04,
    0x00, 0x00, 0x00, 0x72, 0xfa, 0xff, 0xff, 0x04, 0x00, 0x00, 0x00, 0x58, 0x00,
    0x00, 0x00, 0x0c, 0x00, 0x00, 0x00, 0x08, 0x00, 0x0e, 0x00, 0x08, 0x00, 0x04,
    0x00, 0x08, 0x00, 0x00, 0x00, 0x10, 0x00, 0x00, 0x00, 0x28, 0x00, 0x00, 0x00,
    0x00, 0x00, 0x06, 0x00, 0x08, 0x00, 0x04, 0x00, 0x06, 0x00, 0x00, 0x00, 0x04,
    0x00, 0x00, 0x00, 0x01, 0x00, 0x00, 0x00, 0xea, 0x03, 0x00, 0x00, 0x00, 0x00,
    0x0a, 0x00, 0x10, 0x00, 0x0c, 0x00, 0x08, 0x00, 0x04, 0x00, 0x0a, 0x00, 0x00,
    0x00, 0x02, 0x00, 0x00, 0x00, 0x02, 0x00, 0x00, 0x00, 0x04, 0x00, 0x00, 0x00,
    0x06, 0x00, 0x00, 0x00, 0x32, 0x2e, 0x31, 0x33, 0x2e, 0x30, 0x00, 0x00, 0xd6,
    0xfa, 0xff, 0xff, 0x04, 0x00, 0x00, 0x00, 0x10, 0x00, 0x00, 0x00, 0x31, 0x2e,
    0x35, 0x2e, 0x30, 0x00, 0x00, 0x00, 0x00, 0x00, 0x00, 0x00, 0x00, 0x00, 0x00,
    0x00, 0xc0, 0xf5, 0xff, 0xff, 0xc4, 0xf5, 0xff, 0xff, 0xc8, 0xf5, 0xff, 0xff,
    0xfe, 0xfa, 0xff, 0xff, 0x04, 0x00, 0x00, 0x00, 0x40, 0x00, 0x00, 0x00, 0x98,
    0xc9, 0x8a, 0x3e, 0xc2, 0x7c, 0x90, 0xbe, 0x16, 0xf2, 0xab, 0x3f, 0x0c, 0x49,
    0x0b, 0xbe, 0x45, 0xcc, 0x4c, 0xbf, 0x02, 0x2e, 0xbd, 0xbe, 0x99, 0xa8, 0x83,
    0x3e, 0xb1, 0xe7, 0x71, 0x3e, 0x74, 0x12, 0x66, 0xbe, 0x11, 0x57, 0x0e, 0x3f,
    0xdd, 0x47, 0xde, 0xbe, 0x55, 0x38, 0x6f, 0xbf, 0xf8, 0x2d, 0x88, 0x3f, 0x30,
    0xc0, 0x00, 0xbd, 0xcd, 0x5a, 0x6a, 0xbf, 0x9a, 0xe1, 0xbf, 0x3e, 0x4a, 0xfb,
    0xff, 0xff, 0x04, 0x00, 0x00, 0x00, 0x00, 0x04, 0x00, 0x00, 0xa8, 0x9e, 0x08,
    0x3d, 0x40, 0x16, 0x13, 0x3d, 0xe0, 0xe7, 0xd9, 0xbe, 0x9b, 0x8e, 0xd1, 0x3e,
    0x8c, 0xfd, 0x8f, 0xbe, 0x2d, 0x1a, 0x9a, 0x3e, 0xb6, 0x0e, 0x8c, 0xbe, 0xb4,
    0x35, 0x70, 0xbe, 0x6e, 0xa7, 0xa6, 0xbe, 0xd9, 0x1a, 0x84, 0x3e, 0xf0, 0x6d,
    0x99, 0xbc, 0xeb, 0x17, 0xd6, 0xbe, 0xbc, 0x66, 0x82, 0x3d, 0x38, 0xc3, 0xcf,
    0xbd, 0x62, 0xc0, 0x2b, 0x3e, 0x50, 0x84, 0x0c, 0xbd, 0x42, 0xa5, 0xd4, 0xbe,
    0x29, 0x13, 0x8e, 0x3e, 0x9c, 0x24, 0xa4, 0x3e, 0xdb, 0xee, 0xbc, 0xbe, 0x03,
    0xd4, 0xd9, 0xbe, 0x24, 0x42, 0xde, 0x3d, 0x5e, 0x76, 0x79, 0x3e, 0x4d, 0xb6,
    0x6e, 0x3e, 0x71, 0x0f, 0x6f, 0xbe, 0x2e, 0x90, 0xa6, 0xbd, 0x9b, 0xaf, 0x0a,
    0xbe, 0xa3, 0xc8, 0x7d, 0xbe, 0x50, 0x49, 0xbb, 0x3c, 0x72, 0xee, 0x55, 0xbe,
    0x98, 0xa2, 0x7e, 0x3d, 0x38, 0x5f, 0xf0, 0x3c, 0xde, 0x40, 0x00, 0x3e, 0x86,
    0x81, 0xa0, 0xbe, 0x95, 0xe1, 0x5f, 0x3f, 0xf0, 0x4f, 0xf4, 0x3c, 0x14, 0xb4,
    0xed, 0xbd, 0x10, 0x57, 0x91, 0xbe, 0x6b, 0xc9, 0xe5, 0xbc, 0xc9, 0x11, 0x02,
    0xbf, 0x4c, 0xfd, 0x35, 0xbe, 0x6d, 0xe3, 0x94, 0xbe, 0xad, 0x5e, 0x1b, 0x3e,
    0x19, 0xff, 0x4a, 0xbf, 0xbe, 0xdf, 0xa8, 0xbe, 0xa0, 0x45, 0xb9, 0xbe, 0x0c,
    0x02, 0xe3, 0x3d, 0x58, 0x2a, 0xa4, 0xbe, 0xf8, 0x4f, 0xdd, 0xbd, 0x71, 0xa5,
    0x99, 0x3e, 0x4b, 0x2b, 0x10, 0x3f, 0x08, 0x6b, 0x9b, 0xbe, 0x72, 0x76, 0xa9,
    0xbe, 0x4a, 0xa0, 0xb9, 0xbe, 0xe1, 0x04, 0xf0, 0x3c, 0x2e, 0xdd, 0x6d, 0x3e,
    0xdb, 0x9e, 0x75, 0xbe, 0x91, 0x24, 0x78, 0x3e, 0x18, 0x15, 0x81, 0x3e, 0x5a,
    0xd1, 0xcc, 0x3d, 0x6e, 0x62, 0x5d, 0x3e, 0xf9, 0x6b, 0xab, 0x3e, 0xbc, 0xb8,
    0xdc, 0xbe, 0xbd, 0xc6, 0x4e, 0x3e, 0x7e, 0xbc, 0x3a, 0xbe, 0x99, 0x28, 0xa4,
    0x3e, 0x83, 0xe9, 0x3d, 0x3e, 0xdd, 0xdc, 0x8c, 0xbe, 0x10, 0xae, 0x21, 0x3d,
    0xc6, 0x72, 0x4a, 0x3e, 0x2c, 0x39, 0x9f, 0xbe, 0x4c, 0xdf, 0xf8, 0xbe, 0xfe,
    0x18, 0x52, 0x3e, 0x5b, 0x29, 0xc3, 0xbe, 0x6c, 0x5b, 0x80, 0xbe, 0xdd, 0x49,
    0x68, 0x3d, 0xec, 0x67, 0xb5, 0xbe, 0x9e, 0x99, 0x6a, 0x3e, 0x1a, 0x04, 0x96,
    0xbe, 0xfd, 0x1e, 0x66, 0x3e, 0x48, 0xff, 0xc1, 0xbe, 0xa6, 0x3f, 0x44, 0x3e,
    0x60, 0x06, 0xd7, 0xbe, 0xdc, 0x19, 0x95, 0x3d, 0xce, 0x6b, 0x28, 0xbe, 0x66,
    0x28, 0xb7, 0xbe, 0xfd, 0x17, 0xbc, 0x3e, 0x60, 0x76, 0x22, 0x3c, 0x00, 0x00,
    0x64, 0x36, 0xe0, 0x77, 0x47, 0xbd, 0xf0, 0x2a, 0xe5, 0xbd, 0xac, 0x54, 0xf6,
    0xbd, 0x48, 0x9c, 0x53, 0x3d, 0x72, 0x94, 0x08, 0xbe, 0x58, 0x20, 0x36, 0xbe,
    0x90, 0x41, 0x31, 0x3d, 0x54, 0xbd, 0xbc, 0x3d, 0x27, 0x92, 0xb8, 0x3e, 0x2c,
    0x7c, 0xc7, 0x3e, 0xf8, 0x2f, 0x91, 0xbe, 0x3f, 0x4a, 0x96, 0x3e, 0xa6, 0x58,
    0x31, 0x3e, 0x49, 0x1b, 0x5e, 0x3e, 0x40, 0x8e, 0xd8, 0xbd, 0xc7, 0x68, 0xb3,
    0x3e, 0xef, 0x63, 0xcf, 0xbd, 0xd0, 0x42, 0x86, 0xbe, 0x64, 0x6a, 0x59, 0xbe,
    0x30, 0x8c, 0x3a, 0xbe, 0x3e, 0x5e, 0x98, 0xbe, 0x5c, 0x36, 0xdd, 0xbe, 0xdb,
    0x46, 0x91, 0xbe, 0x7e, 0x85, 0x2b, 0x3e, 0xf2, 0x4a, 0x74, 0x3e, 0xac, 0x36,
    0xf5, 0x3d, 0xf2, 0x52, 0x21, 0x3e, 0xf0, 0x6a, 0x84, 0xbd, 0x57, 0x91, 0x63,
    0xbe, 0xd8, 0x22, 0x64, 0x3d, 0x4d, 0x2f, 0xad, 0x3e, 0x8b, 0x45, 0x6f, 0xbe,
    0xd6, 0x1b, 0x05, 0x3e, 0xc5, 0xf8, 0x12, 0x3e, 0xb9, 0x1f, 0x47, 0xbe, 0xd9,
    0x7c, 0xcd, 0x3e, 0xbd, 0xc1, 0x8a, 0x3e, 0x36, 0x77, 0xcc, 0xbe, 0x16, 0x41,
    0x99, 0x3e, 0x30, 0x4b, 0x53, 0xbd, 0x5a, 0x39, 0x87, 0xbe, 0xbe, 0xf6, 0x46,
    0x3e, 0xd8, 0x5a, 0x2f, 0x3d, 0xd4, 0xc0, 0x4d, 0xbe, 0xb8, 0x4b, 0x9d, 0xbe,
    0xce, 0xab, 0x99, 0x3d, 0x39, 0x54, 0x7c, 0x3c, 0xc9, 0xf7, 0x95, 0x3e, 0x07,
    0x3e, 0xb4, 0xbe, 0x26, 0x9d, 0x61, 0x3e, 0xcb, 0xa5, 0x06, 0xbf, 0x79, 0x65,
    0x4f, 0xbe, 0x98, 0x53, 0x63, 0x3d, 0x60, 0xf9, 0xd9, 0xbd, 0xc3, 0xbf, 0x78,
    0x3e, 0xfb, 0x99, 0xcb, 0xbe, 0x04, 0x16, 0xa1, 0xbd, 0xcc, 0x7e, 0xd6, 0xbe,
    0x67, 0x37, 0x8a, 0xbe, 0x70, 0x7e, 0x8a, 0xbd, 0xc2, 0xb5, 0x78, 0x3e, 0xa3,
    0xaa, 0xbd, 0x3e, 0xee, 0x06, 0xc7, 0x3d, 0x16, 0x11, 0x6a, 0x3e, 0x17, 0x95,
    0xcb, 0x3d, 0x49, 0x09, 0xd0, 0x3d, 0xd0, 0xe6, 0x12, 0x3e, 0x38, 0x98, 0x8e,
    0xbd, 0x7e, 0x90, 0x64, 0x3e, 0x46, 0x77, 0x11, 0x3e, 0xab, 0xf0, 0xa0, 0xbe,
    0x2a, 0xfb, 0x11, 0xbe, 0x18, 0x93, 0x31, 0x3d, 0xb9, 0x61, 0x31, 0x3f, 0x24,
    0xdd, 0xd2, 0x3d, 0x2c, 0x09, 0xaf, 0x3d, 0xe7, 0xa0, 0xca, 0x3e, 0xf5, 0x71,
    0xca, 0x3e, 0x97, 0x6a, 0x7a, 0x3e, 0xdf, 0x6f, 0x9f, 0xbe, 0x40, 0xf4, 0x05,
    0xbf, 0x55, 0x64, 0xe7, 0x3d, 0xf5, 0xc6, 0x26, 0xbe, 0x40, 0x45, 0xa5, 0x3c,
    0xb8, 0x72, 0x25, 0x3d, 0xc0, 0x50, 0x10, 0xbe, 0xdb, 0x7d, 0xce, 0xbe, 0xe6,
    0x4e, 0xcc, 0xbe, 0x70, 0xd9, 0x7b, 0x3d, 0x63, 0x6b, 0xbd, 0x3e, 0xfe, 0xc4,
    0x06, 0xbe, 0x37, 0x94, 0xc8, 0xbe, 0x53, 0xd5, 0x66, 0xbe, 0xd6, 0x7e, 0x6a,
    0xbf, 0x32, 0xcb, 0x6e, 0x3c, 0xdc, 0xab, 0x08, 0xbe, 0xfb, 0x5a, 0xd5, 0xbe,
    0x76, 0x4e, 0x57, 0xbf, 0x3d, 0xe5, 0x83, 0xbe, 0x4a, 0xb4, 0x64, 0x3e, 0x68,
    0x22, 0x21, 0xbd, 0x58, 0x94, 0x6e, 0xbd, 0x40, 0xab, 0x6e, 0xbe, 0xd3, 0x28,
    0xc0, 0x3e, 0x11, 0x6b, 0xdd, 0x3e, 0xa2, 0xa2, 0x04, 0xbf, 0xc0, 0x7d, 0x08,
    0xbd, 0x34, 0x27, 0xd1, 0x3d, 0x11, 0x6d, 0x7e, 0xbe, 0x57, 0x19, 0xb0, 0x3e,
    0x67, 0x30, 0x1c, 0x3e, 0x9a, 0xc2, 0x1e, 0xbe, 0xb4, 0x87, 0xc3, 0x3e, 0x72,
    0x56, 0x8b, 0xbe, 0x44, 0xcd, 0x33, 0x3f, 0xdb, 0x83, 0x82, 0xbe, 0xba, 0xb9,
    0x0e, 0x3e, 0x76, 0x7b, 0x29, 0x3e, 0x5e, 0xf3, 0x6d, 0x3e, 0x40, 0xee, 0x5c,
    0xbe, 0x36, 0x72, 0x25, 0x3e, 0x24, 0x36, 0xda, 0xbe, 0xb6, 0xbc, 0x33, 0xbe,
    0x18, 0x8b, 0x72, 0xbd, 0xf1, 0x82, 0x66, 0xbe, 0x50, 0x00, 0x71, 0x3d, 0x08,
    0x2e, 0xc7, 0xbe, 0xa8, 0x48, 0xbb, 0xbe, 0xa0, 0xc7, 0x76, 0x3c, 0x7f, 0x39,
    0x86, 0x3e, 0x52, 0x8c, 0x47, 0xbe, 0x02, 0xfd, 0x92, 0xbe, 0x66, 0xc3, 0xae,
    0xbe, 0xe4, 0x62, 0xa9, 0xbe, 0xc8, 0xa5, 0x47, 0x3d, 0xcb, 0xf3, 0xd8, 0x3e,
    0x42, 0x50, 0xbd, 0xbe, 0x58, 0xc8, 0xa8, 0x3e, 0x74, 0x52, 0xa3, 0xbd, 0x3c,
    0x95, 0xb7, 0xbe, 0xb8, 0x1d, 0x82, 0xbd, 0xfd, 0x28, 0x24, 0xbf, 0xdf, 0x66,
    0x8e, 0x3d, 0x88, 0x33, 0x27, 0xbd, 0xe0, 0x09, 0x8a, 0x3d, 0xef, 0x4c, 0xa2,
    0xbe, 0xca, 0xaa, 0xfd, 0xbe, 0x11, 0x3c, 0xb5, 0xbe, 0x68, 0x0f, 0x98, 0xbd,
    0xf2, 0x8f, 0x23, 0x3e, 0x6d, 0x6d, 0xcc, 0xbd, 0x70, 0xa3, 0xc3, 0xbe, 0x28,
    0x77, 0x0e, 0xbd, 0xb5, 0xc2, 0xdc, 0xbe, 0x40, 0x8a, 0x87, 0xbb, 0xce, 0x4b,
    0xb0, 0xbe, 0x0f, 0xeb, 0x8a, 0x3e, 0xf1, 0x86, 0x9e, 0x3e, 0x74, 0x3d, 0xb4,
    0x3d, 0xa0, 0xa6, 0xba, 0xbd, 0xc0, 0xc7, 0x36, 0xbc, 0xea, 0xdc, 0x3e, 0x3e,
    0xa6, 0x4d, 0xac, 0xbe, 0x08, 0x7c, 0x94, 0xbe, 0xd6, 0x92, 0x2d, 0x3e, 0xa9,
    0x84, 0xb7, 0x3e, 0x9b, 0x51, 0xd6, 0xbe, 0x56, 0xff, 0xff, 0xff, 0x04, 0x00,
    0x00, 0x00, 0x40, 0x00, 0x00, 0x00, 0x18, 0x78, 0xdf, 0xbe, 0x90, 0xef, 0x9b,
    0xbd, 0xa9, 0x05, 0x62, 0x3e, 0xc0, 0x67, 0xac, 0xbc, 0x0c, 0x79, 0xb8, 0xbe,
    0x51, 0x77, 0xfd, 0xbe, 0x9d, 0xb5, 0x9f, 0x3e, 0x31, 0x64, 0xdc, 0x3e, 0x80,
    0xd9, 0x10, 0xbd, 0xe1, 0xdf, 0x06, 0x3f, 0x34, 0xa1, 0xbe, 0x3e, 0xef, 0x68,
    0xfc, 0x3e, 0xcb, 0xbb, 0xe6, 0xbe, 0xd2, 0x88, 0x79, 0xbe, 0xa8, 0xe8, 0x97,
    0xbd, 0xaa, 0xb4, 0x1f, 0x3f, 0xa2, 0xff, 0xff, 0xff, 0x04, 0x00, 0x00, 0x00,
    0x40, 0x00, 0x00, 0x00, 0x00, 0x00, 0x00, 0x00, 0x00, 0x00, 0x00, 0x00, 0xc0,
    0x46, 0xa3, 0x3f, 0x00, 0x00, 0x00, 0x00, 0x00, 0x00, 0x00, 0x00, 0x00, 0x00,
    0x00, 0x00, 0xbb, 0xdb, 0xc6, 0xb9, 0x0a, 0xfa, 0x85, 0xbe, 0x00, 0x00, 0x00,
    0x00, 0x4b, 0xda, 0x71, 0xbf, 0x10, 0xfa, 0xf2, 0x3e, 0xf3, 0x3b, 0x70, 0xbf,
    0x00, 0x00, 0x00, 0x00, 0x00, 0x00, 0x00, 0x00, 0x00, 0x00, 0x00, 0x00, 0x65,
    0x25, 0x63, 0xbf, 0xee, 0xff, 0xff, 0xff, 0x04, 0x00, 0x00, 0x00, 0x04, 0x00,
    0x00, 0x00, 0x5f, 0xb7, 0xdf, 0xbe, 0x00, 0x00, 0x06, 0x00, 0x08, 0x00, 0x04,
    0x00, 0x06, 0x00, 0x00, 0x00, 0x04, 0x00, 0x00, 0x00, 0x40, 0x00, 0x00, 0x00,
    0x00, 0x00, 0x00, 0x00, 0x1e, 0xe1, 0xd0, 0x3e, 0xe7, 0xf6, 0x79, 0x3f, 0xe0,
    0x7c, 0xc0, 0x3e, 0xe9, 0x1e, 0xa5, 0x3e, 0x00, 0x00, 0x00, 0x00, 0xcc, 0x42,
    0x34, 0x3e, 0xbf, 0xee, 0xb5, 0xbe, 0xcd, 0x61, 0x8e, 0x3d, 0x41, 0x91, 0x2c,
    0xbd, 0x8a, 0x0c, 0x13, 0x3f, 0x2f, 0x72, 0xef, 0x3e, 0xce, 0xf3, 0x1e, 0xbf,
    0x00, 0x00, 0x00, 0x00, 0x41, 0xe6, 0xcc, 0x3e, 0x00, 0x00, 0x00, 0x00, 0x20,
    0xfb, 0xff, 0xff, 0x24, 0xfb, 0xff, 0xff, 0x0f, 0x00, 0x00, 0x00, 0x4d, 0x4c,
    0x49, 0x52, 0x20, 0x43, 0x6f, 0x6e, 0x76, 0x65, 0x72, 0x74, 0x65, 0x64, 0x2e,
    0x00, 0x01, 0x00, 0x00, 0x00, 0x14, 0x00, 0x00, 0x00, 0x00, 0x00, 0x0e, 0x00,
    0x18, 0x00, 0x14, 0x00, 0x10, 0x00, 0x0c, 0x00, 0x08, 0x00, 0x04, 0x00, 0x0e,
    0x00, 0x00, 0x00, 0x14, 0x00, 0x00, 0x00, 0x1c, 0x00, 0x00, 0x00, 0xd8, 0x00,
    0x00, 0x00, 0xdc, 0x00, 0x00, 0x00, 0xe0, 0x00, 0x00, 0x00, 0x04, 0x00, 0x00,
    0x00, 0x6d, 0x61, 0x69, 0x6e, 0x00, 0x00, 0x00, 0x00, 0x03, 0x00, 0x00, 0x00,
    0x80, 0x00, 0x00, 0x00, 0x38, 0x00, 0x00, 0x00, 0x04, 0x00, 0x00, 0x00, 0x9a,
    0xff, 0xff, 0xff, 0x10, 0x00, 0x00, 0x00, 0x00, 0x00, 0x00, 0x08, 0x0c, 0x00,
    0x00, 0x00, 0x10, 0x00, 0x00, 0x00, 0x9c, 0xfb, 0xff, 0xff, 0x01, 0x00, 0x00,
    0x00, 0x09, 0x00, 0x00, 0x00, 0x03, 0x00, 0x00, 0x00, 0x08, 0x00, 0x00, 0x00,
    0x06, 0x00, 0x00, 0x00, 0x02, 0x00, 0x00, 0x00, 0xca, 0xff, 0xff, 0xff, 0x10,
    0x00, 0x00, 0x00, 0x00, 0x00, 0x00, 0x08, 0x10, 0x00, 0x00, 0x00, 0x14, 0x00,
    0x00, 0x00, 0xba, 0xff, 0xff, 0xff, 0x00, 0x00, 0x00, 0x01, 0x01, 0x00, 0x00,
    0x00, 0x08, 0x00, 0x00, 0x00, 0x03, 0x00, 0x00, 0x00, 0x07, 0x00, 0x00, 0x00,
    0x05, 0x00, 0x00, 0x00, 0x01, 0x00, 0x00, 0x00, 0x00, 0x00, 0x0e, 0x00, 0x16,
    0x00, 0x00, 0x00, 0x10, 0x00, 0x0c, 0x00, 0x0b, 0x00, 0x04, 0x00, 0x0e, 0x00,
    0x00, 0x00, 0x18, 0x00, 0x00, 0x00, 0x00, 0x00, 0x00, 0x08, 0x18, 0x00, 0x00,
    0x00, 0x1c, 0x00, 0x00, 0x00, 0x00, 0x00, 0x06, 0x00, 0x08, 0x00, 0x07, 0x00,
    0x06, 0x00, 0x00, 0x00, 0x00, 0x00, 0x00, 0x01, 0x01, 0x00, 0x00, 0x00, 0x07,
    0x00, 0x00, 0x00, 0x03, 0x00, 0x00, 0x00, 0x00, 0x00, 0x00, 0x00, 0x04, 0x00,
    0x00, 0x00, 0x03, 0x00, 0x00, 0x00, 0x01, 0x00, 0x00, 0x00, 0x09, 0x00, 0x00,
    0x00, 0x01, 0x00, 0x00, 0x00, 0x00, 0x00, 0x00, 0x00, 0x0a, 0x00, 0x00, 0x00,
    0x8c, 0x03, 0x00, 0x00, 0x1c, 0x03, 0x00, 0x00, 0xac, 0x02, 0x00, 0x00, 0x58,
    0x02, 0x00, 0x00, 0x10, 0x02, 0x00, 0x00, 0xc4, 0x01, 0x00, 0x00, 0x78, 0x01,
    0x00, 0x00, 0xf0, 0x00, 0x00, 0x00, 0x60, 0x00, 0x00, 0x00, 0x04, 0x00, 0x00,
    0x00, 0xb2, 0xfc, 0xff, 0xff, 0x00, 0x00, 0x00, 0x01, 0x14, 0x00, 0x00, 0x00,
    0x1c, 0x00, 0x00, 0x00, 0x1c, 0x00, 0x00, 0x00, 0x0a, 0x00, 0x00, 0x00, 0x34,
    0x00, 0x00, 0x00, 0x02, 0x00, 0x00, 0x00, 0xff, 0xff, 0xff, 0xff, 0x01, 0x00,
    0x00, 0x00, 0x9c, 0xfc, 0xff, 0xff, 0x19, 0x00, 0x00, 0x00, 0x53, 0x74, 0x61,
    0x74, 0x65, 0x66, 0x75, 0x6c, 0x50, 0x61, 0x72, 0x74, 0x69, 0x74, 0x69, 0x6f,
    0x6e, 0x65, 0x64, 0x43, 0x61, 0x6c, 0x6c, 0x3a, 0x30, 0x00, 0x00, 0x00, 0x02,
    0x00, 0x00, 0x00, 0x01, 0x00, 0x00, 0x00, 0x01, 0x00, 0x00, 0x00, 0x0a, 0xfd,
    0xff, 0xff, 0x00, 0x00, 0x00, 0x01, 0x14, 0x00, 0x00, 0x00, 0x1c, 0x00, 0x00,
    0x00, 0x1c, 0x00, 0x00, 0x00, 0x09, 0x00, 0x00, 0x00, 0x68, 0x00, 0x00, 0x00,
    0x02, 0x00, 0x00, 0x00, 0xff, 0xff, 0xff, 0xff, 0x10, 0x00, 0x00, 0x00, 0xf4,
    0xfc, 0xff, 0xff, 0x4c, 0x00, 0x00, 0x00, 0x73, 0x65, 0x71, 0x75, 0x65, 0x6e,
    0x74, 0x69, 0x61, 0x6c, 0x2f, 0x64, 0x65, 0x6e, 0x73, 0x65, 0x5f, 0x31, 0x2f,
    0x4d, 0x61, 0x74, 0x4d, 0x75, 0x6c, 0x3b, 0x73, 0x65, 0x71, 0x75, 0x65, 0x6e,
    0x74, 0x69, 0x61, 0x6c, 0x2f, 0x64, 0x65, 0x6e, 0x73, 0x65, 0x5f, 0x31, 0x2f,
    0x52, 0x65, 0x6c, 0x75, 0x3b, 0x73, 0x65, 0x71, 0x75, 0x65, 0x6e, 0x74, 0x69,
    0x61, 0x6c, 0x2f, 0x64, 0x65, 0x6e, 0x73, 0x65, 0x5f, 0x31, 0x2f, 0x42, 0x69,
    0x61, 0x73, 0x41, 0x64, 0x64, 0x00, 0x00, 0x00, 0x00, 0x02, 0x00, 0x00, 0x00,
    0x01, 0x00, 0x00, 0x00, 0x10, 0x00, 0x00, 0x00, 0x96, 0xfd, 0xff, 0xff, 0x00,
    0x00, 0x00, 0x01, 0x14, 0x00, 0x00, 0x00, 0x1c, 0x00, 0x00, 0x00, 0x1c, 0x00,
    0x00, 0x00, 0x08, 0x00, 0x00, 0x00, 0x60, 0x00, 0x00, 0x00, 0x02, 0x00, 0x00,
    0x00, 0xff, 0xff, 0xff, 0xff, 0x10, 0x00, 0x00, 0x00, 0x80, 0xfd, 0xff, 0xff,
    0x46, 0x00, 0x00, 0x00, 0x73, 0x65, 0x71, 0x75, 0x65, 0x6e, 0x74, 0x69, 0x61,
    0x6c, 0x2f, 0x64, 0x65, 0x6e, 0x73, 0x65, 0x2f, 0x4d, 0x61, 0x74, 0x4d, 0x75,
    0x6c, 0x3b, 0x73, 0x65, 0x71, 0x75, 0x65, 0x6e, 0x74, 0x69, 0x61, 0x6c, 0x2f,
    0x64, 0x65, 0x6e, 0x73, 0x65, 0x2f, 0x52, 0x65, 0x6c, 0x75, 0x3b, 0x73, 0x65,
    0x71, 0x75, 0x65, 0x6e, 0x74, 0x69, 0x61, 0x6c, 0x2f, 0x64, 0x65, 0x6e, 0x73,
    0x65, 0x2f, 0x42, 0x69, 0x61, 0x73, 0x41, 0x64, 0x64, 0x00, 0x00, 0x02, 0x00,
    0x00, 0x00, 0x01, 0x00, 0x00, 0x00, 0x10, 0x00, 0x00, 0x00, 0x86, 0xfe, 0xff,
    0xff, 0x00, 0x00, 0x00, 0x01, 0x10, 0x00, 0x00, 0x00, 0x10, 0x00, 0x00, 0x00,
    0x07, 0x00, 0x00, 0x00, 0x28, 0x00, 0x00, 0x00, 0xf4, 0xfd, 0xff, 0xff, 0x19,
    0x00, 0x00, 0x00, 0x73, 0x65, 0x71, 0x75, 0x65, 0x6e, 0x74, 0x69, 0x61, 0x6c,
    0x2f, 0x64, 0x65, 0x6e, 0x73, 0x65, 0x5f, 0x32, 0x2f, 0x4d, 0x61, 0x74, 0x4d,
    0x75, 0x6c, 0x00, 0x00, 0x00, 0x02, 0x00, 0x00, 0x00, 0x01, 0x00, 0x00, 0x00,
    0x10, 0x00, 0x00, 0x00, 0xce, 0xfe, 0xff, 0xff, 0x00, 0x00, 0x00, 0x01, 0x10,
    0x00, 0x00, 0x00, 0x10, 0x00, 0x00, 0x00, 0x06, 0x00, 0x00, 0x00, 0x28, 0x00,
    0x00, 0x00, 0x3c, 0xfe, 0xff, 0xff, 0x19, 0x00, 0x00, 0x00, 0x73, 0x65, 0x71,
    0x75, 0x65, 0x6e, 0x74, 0x69, 0x61, 0x6c, 0x2f, 0x64, 0x65, 0x6e, 0x73, 0x65,
    0x5f, 0x31, 0x2f, 0x4d, 0x61, 0x74, 0x4d, 0x75, 0x6c, 0x00, 0x00, 0x00, 0x02,
    0x00, 0x00, 0x00, 0x10, 0x00, 0x00, 0x00, 0x10, 0x00, 0x00, 0x00, 0x16, 0xff,
    0xff, 0xff, 0x00, 0x00, 0x00, 0x01, 0x10, 0x00, 0x00, 0x00, 0x10, 0x00, 0x00,
    0x00, 0x05, 0x00, 0x00, 0x00, 0x24, 0x00, 0x00, 0x00, 0x84, 0xfe, 0xff, 0xff,
    0x17, 0x00, 0x00, 0x00, 0x73, 0x65, 0x71, 0x75, 0x65, 0x6e, 0x74, 0x69, 0x61,
    0x6c, 0x2f, 0x64, 0x65, 0x6e, 0x73, 0x65, 0x2f, 0x4d, 0x61, 0x74, 0x4d, 0x75,
    0x6c, 0x00, 0x02, 0x00, 0x00, 0x00, 0x10, 0x00, 0x00, 0x00, 0x01, 0x00, 0x00,
    0x00, 0x5a, 0xff, 0xff, 0xff, 0x00, 0x00, 0x00, 0x01, 0x10, 0x00, 0x00, 0x00,
    0x10, 0x00, 0x00, 0x00, 0x04, 0x00, 0x00, 0x00, 0x34, 0x00, 0x00, 0x00, 0xc8,
    0xfe, 0xff, 0xff, 0x27, 0x00, 0x00, 0x00, 0x73, 0x65, 0x71, 0x75, 0x65, 0x6e,
    0x74, 0x69, 0x61, 0x6c, 0x2f, 0x64, 0x65, 0x6e, 0x73, 0x65, 0x2f, 0x42, 0x69,
    0x61, 0x73, 0x41, 0x64, 0x64, 0x2f, 0x52, 0x65, 0x61, 0x64, 0x56, 0x61, 0x72,
    0x69, 0x61, 0x62, 0x6c, 0x65, 0x4f, 0x70, 0x00, 0x01, 0x00, 0x00, 0x00, 0x10,
    0x00, 0x00, 0x00, 0xaa, 0xff, 0xff, 0xff, 0x00, 0x00, 0x00, 0x01, 0x10, 0x00,
    0x00, 0x00, 0x10, 0x00, 0x00, 0x00, 0x03, 0x00, 0x00, 0x00, 0x38, 0x00, 0x00,
    0x00, 0x18, 0xff, 0xff, 0xff, 0x29, 0x00, 0x00, 0x00, 0x73, 0x65, 0x71, 0x75,
    0x65, 0x6e, 0x74, 0x69, 0x61, 0x6c, 0x2f, 0x64, 0x65, 0x6e, 0x73, 0x65, 0x5f,
    0x32, 0x2f, 0x42, 0x69, 0x61, 0x73, 0x41, 0x64, 0x64, 0x2f, 0x52, 0x65, 0x61,
    0x64, 0x56, 0x61, 0x72, 0x69, 0x61, 0x62, 0x6c, 0x65, 0x4f, 0x70, 0x00, 0x00,
    0x00, 0x01, 0x00, 0x00, 0x00, 0x01, 0x00, 0x00, 0x00, 0x00, 0x00, 0x16, 0x00,
    0x18, 0x00, 0x14, 0x00, 0x00, 0x00, 0x10, 0x00, 0x0c, 0x00, 0x08, 0x00, 0x00,
    0x00, 0x00, 0x00, 0x00, 0x00, 0x07, 0x00, 0x16, 0x00, 0x00, 0x00, 0x00, 0x00,
    0x00, 0x01, 0x10, 0x00, 0x00, 0x00, 0x10, 0x00, 0x00, 0x00, 0x02, 0x00, 0x00,
    0x00, 0x38, 0x00, 0x00, 0x00, 0x84, 0xff, 0xff, 0xff, 0x29, 0x00, 0x00, 0x00,
    0x73, 0x65, 0x71, 0x75, 0x65, 0x6e, 0x74, 0x69, 0x61, 0x6c, 0x2f, 0x64, 0x65,
    0x6e, 0x73, 0x65, 0x5f, 0x31, 0x2f, 0x42, 0x69, 0x61, 0x73, 0x41, 0x64, 0x64,
    0x2f, 0x52, 0x65, 0x61, 0x64, 0x56, 0x61, 0x72, 0x69, 0x61, 0x62, 0x6c, 0x65,
    0x4f, 0x70, 0x00, 0x00, 0x00, 0x01, 0x00, 0x00, 0x00, 0x10, 0x00, 0x00, 0x00,
    0x00, 0x00, 0x16, 0x00, 0x1c, 0x00, 0x18, 0x00, 0x00, 0x00, 0x14, 0x00, 0x10,
    0x00, 0x0c, 0x00, 0x00, 0x00, 0x00, 0x00, 0x08, 0x00, 0x07, 0x00, 0x16, 0x00,
    0x00, 0x00, 0x00, 0x00, 0x00, 0x01, 0x14, 0x00, 0x00, 0x00, 0x20, 0x00, 0x00,
    0x00, 0x20, 0x00, 0x00, 0x00, 0x01, 0x00, 0x00, 0x00, 0x3c, 0x00, 0x00, 0x00,
    0x02, 0x00, 0x00, 0x00, 0xff, 0xff, 0xff, 0xff, 0x01, 0x00, 0x00, 0x00, 0x04,
    0x00, 0x04, 0x00, 0x04, 0x00, 0x00, 0x00, 0x1d, 0x00, 0x00, 0x00, 0x73, 0x65,
    0x72, 0x76, 0x69, 0x6e, 0x67, 0x5f, 0x64, 0x65, 0x66, 0x61, 0x75, 0x6c, 0x74,
    0x5f, 0x64, 0x65, 0x6e, 0x73, 0x65, 0x5f, 0x69, 0x6e, 0x70, 0x75, 0x74, 0x3a,
    0x30, 0x00, 0x00, 0x00, 0x02, 0x00, 0x00, 0x00, 0x01, 0x00, 0x00, 0x00, 0x01,
    0x00, 0x00, 0x00, 0x01, 0x00, 0x00, 0x00, 0x10, 0x00, 0x00, 0x00, 0x0c, 0x00,
    0x0c, 0x00, 0x0b, 0x00, 0x00, 0x00, 0x00, 0x00, 0x04, 0x00, 0x0c, 0x00, 0x00,
    0x00, 0x09, 0x00, 0x00, 0x00, 0x00, 0x00, 0x00, 0x09,
};
const int kwt_len = 3168;
